0000000000000011
1111111111110101
0000000000000101
1111111111111101
1111111111111111
1111111111111111
1111111111111101
0000000000000011
0000000000000001
1111111111111101
0000000000000001
1111111111111111
1111111111111001
0000000000000011
0000000000000001
0000000000000011
0000000000000001
1111111111111101
0000000000000001
1111111111111011
1111111111111011
0000000000000011
1111111111111011
1111111111111111
1111111111111111
1111111111111011
1111111111111101
1111111111111001
0000000000000001
1111111111111111
1111111111111011
1111111111111101
0000000000000111
1111111111111101
1111111111111111
1111111111111011
1111111111111111
0000000000000001
0000000000000001
0000000000000101